<pad>	0
<unk>	0
<s>	0
</s>	0
▁t	-0
he	-1
▁a	-2
ou	-3
▁s	-4
in	-5
▁m	-6
▁w	-7
re	-8
ha	-9
nd	-10
▁the	-11
▁b	-12
is	-13
er	-14
or	-15
▁I	-16
ll	-17
▁f	-18
on	-19
it	-20
es	-21
▁d	-22
▁c	-23
▁l	-24
▁o	-25
en	-26
▁T	-27
▁n	-28
▁y	-29
▁th	-30
ar	-31
▁h	-32
▁A	-33
▁p	-34
▁you	-35
▁to	-36
▁and	-37
hat	-38
▁of	-39
▁he	-40
ot	-41
an	-42
ve	-43
st	-44
ing	-45
ow	-46
om	-47
▁g	-48
at	-49
ed	-50
▁W	-51
▁in	-52
▁be	-53
▁S	-54
se	-55
ce	-56
▁ha	-57
et	-58
▁my	-59
ld	-60
ay	-61
le	-62
▁H	-63
▁B	-64
ut	-65
ir	-66
ith	-67
im	-68
▁me	-69
▁C	-70
ch	-71
gh	-72
▁not	-73
▁M	-74
▁is	-75
ill	-76
▁e	-77
▁that	-78
ke	-79
▁for	-80
▁And	-81
oo	-82
our	-83
▁with	-84
▁u	-85
▁P	-86
▁F	-87
▁we	-88
ad	-89
▁O	-90
ter	-91
▁The	-92
▁it	-93
as	-94
▁L	-95
ri	-96
al	-97
ent	-98
▁his	-99
▁your	-100
her	-101
▁st	-102
id	-103
ra	-104
▁thou	-105
▁E	-106
ght	-107
▁him	-108
▁re	-109
ly	-110
▁this	-111
▁li	-112
▁have	-113
us	-114
ome	-115
ord	-116
▁on	-117
▁D	-118
▁G	-119
▁k	-120
▁so	-121
ur	-122
▁as	-123
ver	-124
ore	-125
ould	-126
ain	-127
ro	-128
▁de	-129
▁N	-130
▁do	-131
▁will	-132
hi	-133
ck	-134
am	-135
ood	-136
EN	-137
▁sha	-138
ess	-139
▁se	-140
▁her	-141
ion	-142
est	-143
US	-144
▁[	-145
▁lo	-146
nt	-147
ge	-148
ER	-149
ea	-150
▁[_	-151
▁thy	-152
▁R	-153
▁no	-154
▁Y	-155
▁su	-156
IN	-157
▁an	-158
and	-159
▁Th	-160
▁all	-161
il	-162
▁but	-163
th	-164
AR	-165
ru	-166
ake	-167
._	-168
▁K	-169
▁fa	-170
if	-171
▁sp	-172
AN	-173
ell	-174
▁To	-175
ct	-176
ear	-177
▁kn	-178
ight	-179
._]	-180
▁shall	-181
▁thee	-182
▁v	-183
ho	-184
▁are	-185
ast	-186
rom	-187
ES	-188
▁That	-189
han	-190
ard	-191
art	-192
▁by	-193
▁sh	-194
ON	-195
▁our	-196
▁ne	-197
ant	-198
▁man	-199
ine	-200
end	-201
▁’	-202
▁En	-203
▁But	-204
▁He	-205
▁at	-206
ous	-207
qu	-208
▁up	-209
▁am	-210
▁com	-211
res	-212
▁mu	-213
sel	-214
▁What	-215
out	-216
ST	-217
one	-218
ie	-219
▁she	-220
ind	-221
▁lord	-222
em	-223
▁good	-224
▁whe	-225
▁go	-226
▁con	-227
ive	-228
hich	-229
ers	-230
ong	-231
ul	-232
▁from	-233
ic	-234
▁love	-235
ry	-236
OR	-237
▁what	-238
oth	-239
ven	-240
row	-241
▁bl	-242
ble	-243
▁them	-244
▁was	-245
▁sw	-246
▁know	-247
▁would	-248
▁Enter	-249
▁more	-250
▁For	-251
▁their	-252
pp	-253
au	-254
IO	-255
▁pr	-256
▁can	-257
ol	-258
ath	-259
fe	-260
ep	-261
▁now	-262
▁they	-263
ure	-264
▁there	-265
ost	-266
▁hat	-267
all	-268
▁wor	-269
Ex	-270
▁or	-271
▁than	-272
▁ar	-273
self	-274
el	-275
AL	-276
ate	-277
▁sir	-278
▁us	-279
▁if	-280
ink	-281
▁say	-282
ame	-283
▁Whe	-284
▁let	-285
▁here	-286
um	-287
other	-288
▁J	-289
ue	-290
▁pl	-291
▁You	-292
reat	-293
▁My	-294
are	-295
fore	-296
ves	-297
ak	-298
ort	-299
OL	-300
▁If	-301
ET	-302
hy	-303
▁like	-304
ook	-305
ish	-306
▁then	-307
▁well	-308
ound	-309
▁one	-310
▁hath	-311
ING	-312
▁see	-313
ather	-314
ig	-315
▁j	-316
od	-317
▁un	-318
▁should	-319
un	-320
▁did	-321
▁r	-322
EL	-323
▁As	-324
▁may	-325
IC	-326
▁come	-327
▁en	-328
▁V	-329
▁dis	-330
▁br	-331
▁make	-332
ance	-333
gain	-334
▁mad	-335
▁qu	-336
▁ho	-337
▁out	-338
▁upon	-339
▁which	-340
ice	-341
▁sa	-342
▁must	-343
very	-344
▁were	-345
eak	-346
red	-347
ity	-348
pe	-349
IR	-350
▁had	-351
ime	-352
▁too	-353
IUS	-354
▁pro	-355
ies	-356
▁tru	-357
pt	-358
ence	-359
▁heart	-360
▁ey	-361
▁po	-362
▁when	-363
▁such	-364
▁hon	-365
▁KING	-366
▁Be	-367
▁hand	-368
orn	-369
unt	-370
▁In	-371
▁ex	-372
ff	-373
LO	-374
ond	-375
ther	-376
ist	-377
▁Thou	-378
▁So	-379
▁al	-380
▁again	-381
ick	-382
▁King	-383
▁This	-384
▁How	-385
▁yet	-386
ide	-387
ass	-388
ness	-389
UC	-390
▁With	-391
ave	-392
▁who	-393
▁Why	-394
wn	-395
▁We	-396
▁off	-397
ise	-398
▁speak	-399
IA	-400
AT	-401
ire	-402
age	-403
▁some	-404
▁“	-405
▁ro	-406
urn	-407
▁No	-408
eet	-409
ings	-410
▁fri	-411
▁think	-412
▁these	-413
io	-414
ack	-415
ose	-416
▁fl	-417
▁mine	-418
ady	-419
▁ab	-420
oy	-421
ARD	-422
▁fo	-423
ng	-424
own	-425
▁father	-426
▁great	-427
▁U	-428
AM	-429
▁hea	-430
▁cha	-431
▁how	-432
▁It	-433
▁time	-434
eunt	-435
▁tw	-436
▁give	-437
ful	-438
ress	-439
ince	-440
▁Who	-441
IL	-442
▁Of	-443
ag	-444
de	-445
▁Q	-446
▁Is	-447
entle	-448
ESS	-449
▁gra	-450
▁take	-451
▁friend	-452
ust	-453
ci	-454
▁ri	-455
▁There	-456
▁much	-457
▁where	-458
os	-459
RO	-460
way	-461
Exeunt	-462
ber	-463
▁mar	-464
ation	-465
▁day	-466
▁most	-467
▁part	-468
▁tell	-469
ENE	-470
▁bet	-471
aster	-472
▁Let	-473
▁des	-474
▁bre	-475
▁never	-476
ace	-477
Exit	-478
▁le	-479
▁lea	-480
▁hear	-481
▁Which	-482
ree	-483
▁look	-484
▁men	-485
ull	-486
▁Come	-487
▁AN	-488
▁other	-489
▁art	-490
li	-491
ough	-492
ither	-493
ap	-494
▁blood	-495
ign	-496
ite	-497
▁ear	-498
▁life	-499
▁death	-500
▁word	-501
▁doth	-502
ount	-503
▁honour	-504
ene	-505
▁fair	-506
ment	-507
oul	-508
▁When	-509
▁Where	-510
ces	-511
▁wr	-512
▁By	-513
igh	-514
▁Sc	-515
che	-516
▁Or	-517
erv	-518
▁SC	-519
▁Sir	-520
▁gentle	-521
LE	-522
▁fear	-523
▁son	-524
▁int	-525
▁tr	-526
ase	-527
ius	-528
ward	-529
ans	-530
▁sc	-531
▁Lord	-532
▁ple	-533
▁any	-534
ool	-535
▁cl	-536
▁own	-537
▁per	-538
▁sweet	-539
▁Now	-540
▁ad	-541
▁comm	-542
itt	-543
FF	-544
▁SCENE	-545
not	-546
ove	-547
▁war	-548
nder	-549
▁night	-550
▁ra	-551
▁heaven	-552
▁An	-553
▁Pr	-554
ouse	-555
▁God	-556
▁made	-557
▁call	-558
hing	-559
tis	-560
ft	-561
land	-562
nce	-563
▁wh	-564
▁true	-565
▁eyes	-566
ee	-567
les	-568
▁II	-569
▁co	-570
IT	-571
per	-572
▁very	-573
rown	-574
llow	-575
augh	-576
ia	-577
▁ke	-578
▁app	-579
IRST	-580
▁FIRST	-581
▁cannot	-582
uke	-583
▁Mar	-584
▁hast	-585
▁af	-586
▁pre	-587
▁world	-588
ction	-589
orrow	-590
▁St	-591
▁str	-592
▁Then	-593
man	-594
▁pray	-595
▁Scene	-596
▁Here	-597
▁been	-598
UR	-599
▁cour	-600
▁CA	-601
▁away	-602
able	-603
▁bear	-604
ss	-605
▁im	-606
▁Do	-607
▁comp	-608
▁king	-609
Tis	-610
▁ru	-611
▁way	-612
▁done	-613
▁Your	-614
▁wit	-615
▁nor	-616
▁la	-617
ving	-618
▁two	-619
cc	-620
.]	-621
ud	-622
ock	-623
aint	-624
▁head	-625
▁wom	-626
▁down	-627
▁stand	-628
▁Ay	-629
▁arm	-630
▁name	-631
▁ever	-632
ps	-633
een	-634
▁might	-635
▁before	-636
TH	-637
ower	-638
iss	-639
▁cont	-640
▁brother	-641
PH	-642
▁She	-643
▁pres	-644
ENT	-645
AND	-646
ger	-647
▁old	-648
ks	-649
less	-650
▁thought	-651
sw	-652
▁_	-653
ian	-654
ife	-655
AC	-656
▁sl	-657
ears	-658
ty	-659
▁beg	-660
▁Duke	-661
▁leave	-662
▁noble	-663
aughter	-664
▁Sha	-665
▁long	-666
▁ANT	-667
ORD	-668
ach	-669
▁lady	-670
▁RO	-671
▁thus	-672
▁rem	-673
irst	-674
▁could	-675
▁Ca	-676
▁His	-677
▁fool	-678
AG	-679
▁new	-680
LA	-681
▁SE	-682
▁har	-683
ason	-684
▁dead	-685
IAN	-686
_.]	-687
rie	-688
▁comes	-689
▁TH	-690
bl	-691
▁pur	-692
▁house	-693
▁poor	-694
ause	-695
▁At	-696
▁show	-697
▁QU	-698
▁live	-699
▁end	-700
▁being	-701
▁better	-702
▁gl	-703
▁soul	-704
ds	-705
ors	-706
▁Well	-707
▁find	-708
CE	-709
ple	-710
▁Go	-711
akes	-712
atter	-713
▁rep	-714
▁best	-715
eth	-716
▁still	-717
ious	-718
▁both	-719
▁ma	-720
▁keep	-721
ew	-722
ert	-723
▁into	-724
STA	-725
eace	-726
▁every	-727
▁Al	-728
▁mer	-729
▁nothing	-730
tun	-731
uck	-732
ought	-733
nto	-734
▁MAR	-735
▁many	-736
▁Nor	-737
KE	-738
▁They	-739
OND	-740
▁Will	-741
▁sm	-742
MAN	-743
ied	-744
come	-745
▁Good	-746
ier	-747
▁bra	-748
cy	-749
har	-750
▁DU	-751
▁Rome	-752
SS	-753
▁put	-754
ICH	-755
cl	-756
▁master	-757
me	-758
▁fell	-759
old	-760
ittle	-761
▁myself	-762
ren	-763
atch	-764
▁RICH	-765
▁pri	-766
▁daughter	-767
▁Ant	-768
▁serv	-769
mp	-770
▁LE	-771
ield	-772
▁set	-773
hip	-774
▁tong	-775
▁friends	-776
CT	-777
▁lie	-778
▁Than	-779
men	-780
▁eye	-781
ne	-782
▁Nay	-783
▁wife	-784
▁young	-785
▁RICHARD	-786
ins	-787
▁Not	-788
▁little	-789
ark	-790
▁OF	-791
▁Br	-792
▁Her	-793
▁hour	-794
▁those	-795
UT	-796
well	-797
rance	-798
▁Eng	-799
▁follow	-800
ac	-801
▁SEC	-802
rant	-803
▁LA	-804
▁first	-805
▁SECOND	-806
INE	-807
▁chi	-808
▁hold	-809
istress	-810
vil	-811
RY	-812
its	-813
ons	-814
ret	-815
▁nat	-816
int	-817
EEN	-818
▁die	-819
UL	-820
▁dear	-821
lf	-822
▁place	-823
▁sle	-824
tend	-825
ile	-826
for	-827
▁Shall	-828
▁QUEEN	-829
esar	-830
▁conf	-831
ab	-832
▁rest	-833
ens	-834
▁gu	-835
▁fall	-836
▁under	-837
alk	-838
uty	-839
▁fe	-840
▁himself	-841
eds	-842
▁tra	-843
▁cons	-844
IM	-845
lt	-846
▁face	-847
▁thine	-848
uth	-849
▁lords	-850
ilt	-851
▁FAL	-852
STAFF	-853
▁gone	-854
▁mind	-855
▁FALSTAFF	-856
▁Cl	-857
▁Yet	-858
TER	-859
ison	-860
▁el	-861
WN	-862
▁tri	-863
▁against	-864
.—	-865
oud	-866
▁ch	-867
▁DUKE	-868
ail	-869
▁answ	-870
▁worth	-871
erve	-872
▁kind	-873
▁Have	-874
▁gi	-875
iness	-876
▁pass	-877
▁LUC	-878
▁Caesar	-879
▁Thy	-880
▁none	-881
IS	-882
oun	-883
▁che	-884
▁boy	-885
▁woman	-886
▁grie	-887
▁present	-888
RIN	-889
▁play	-890
get	-891
irt	-892
ows	-893
▁till	-894
▁mother	-895
ID	-896
ont	-897
ect	-898
▁full	-899
▁stay	-900
hed	-901
▁seem	-902
▁sword	-903
▁tongue	-904
ICK	-905
▁res	-906
▁court	-907
▁All	-908
▁after	-909
bt	-910
esty	-911
▁cur	-912
▁char	-913
▁tre	-914
▁words	-915
▁bring	-916
▁turn	-917
▁whose	-918
▁pe	-919
▁ANTON	-920
be	-921
side	-922
▁Our	-923
▁else	-924
▁though	-925
ale	-926
sand	-927
▁forth	-928
▁hus	-929
RESS	-930
▁right	-931
OST	-932
led	-933
ult	-934
▁stre	-935
tune	-936
▁child	-937
▁peace	-938
▁France	-939
ED	-940
▁said	-941
▁another	-942
race	-943
ition	-944
▁AR	-945
▁thr	-946
asure	-947
▁count	-948
▁imp	-949
▁light	-950
EM	-951
▁bel	-952
▁dra	-953
▁PRIN	-954
▁back	-955
UN	-956
ix	-957
▁Ar	-958
▁wrong	-959
ants	-960
▁chan	-961
▁answer	-962
▁kill	-963
▁once	-964
▁same	-965
band	-966
ets	-967
hile	-968
▁spir	-969
▁ret	-970
▁acc	-971
▁fal	-972
lp	-973
▁reason	-974
IST	-975
ory	-976
▁bod	-977
▁unto	-978
▁crown	-979
▁mean	-980
▁bid	-981
Aside	-982
ANT	-983
LES	-984
ENRY	-985
eech	-986
▁dre	-987
▁has	-988
▁Anton	-989
▁HENRY	-990
air	-991
orse	-992
▁hope	-993
ati	-994
ceive	-995
▁husband	-996
▁matter	-997
▁From	-998
▁earth	-999
▁Up	-1000
▁stran	-1001
▁letter	-1002
▁pra	-1003
ister	-1004
▁faith	-1005
mb	-1006
▁CLO	-1007
▁over	-1008
,—	-1009
CH	-1010
ried	-1011
▁hum	-1012
▁meet	-1013
▁vill	-1014
▁Jo	-1015
▁power	-1016
▁ACT	-1017
ary	-1018
ury	-1019
▁about	-1020
selves	-1021
▁ass	-1022
▁dou	-1023
▁inde	-1024
tw	-1025
▁bea	-1026
▁heard	-1027
▁grace	-1028
▁III	-1029
▁even	-1030
▁home	-1031
vy	-1032
▁high	-1033
▁‘	-1034
▁mo	-1035
▁thousand	-1036
RA	-1037
eal	-1038
▁sleep	-1039
▁three	-1040
▁indeed	-1041
▁Su	-1042
▁shame	-1043
▁please	-1044
LET	-1045
▁whom	-1046
▁hands	-1047
▁HAM	-1048
▁bes	-1049
▁mon	-1050
▁HAMLET	-1051
▁wind	-1052
▁false	-1053
▁thing	-1054
omet	-1055
▁virt	-1056
▁cause	-1057
fect	-1058
▁disc	-1059
▁just	-1060
▁i	-1061
ged	-1062
▁dost	-1063
▁gods	-1064
▁hence	-1065
▁Re	-1066
▁Are	-1067
▁bed	-1068
▁sub	-1069
▁maid	-1070
▁Sp	-1071
▁sold	-1072
▁nature	-1073
▁Lu	-1074
imes	-1075
pect	-1076
▁ED	-1077
▁therefore	-1078
ph	-1079
▁mis	-1080
▁truth	-1081
ars	-1082
▁Upon	-1083
▁makes	-1084
iv	-1085
ute	-1086
IZ	-1087
UM	-1088
ms	-1089
▁thank	-1090
▁state	-1091
▁within	-1092
▁villain	-1093
hn	-1094
▁gold	-1095
PE	-1096
▁PRO	-1097
ere	-1098
▁law	-1099
▁sure	-1100
AST	-1101
ardon	-1102
▁madam	-1103
any	-1104
ork	-1105
▁gr	-1106
▁near	-1107
▁Give	-1108
▁John	-1109
▁break	-1110
▁use	-1111
▁far	-1112
▁val	-1113
▁Ed	-1114
To	-1115
▁adv	-1116
▁youth	-1117
▁Master	-1118
ade	-1119
fort	-1120
▁ere	-1121
ouch	-1122
vere	-1123
▁bus	-1124
▁car	-1125
▁things	-1126
ning	-1127
▁ban	-1128
▁sent	-1129
▁stri	-1130
ild	-1131
cious	-1132
ousin	-1133
ieve	-1134
ours	-1135
▁ROS	-1136
▁ill	-1137
▁came	-1138
▁fight	-1139
ERO	-1140
ESTER	-1141
OM	-1142
hes	-1143
▁bu	-1144
▁ob	-1145
▁England	-1146
▁tears	-1147
▁happ	-1148
▁hither	-1149
pen	-1150
ches	-1151
▁coun	-1152
▁kiss	-1153
AB	-1154
ctor	-1155
ents	-1156
▁ye	-1157
▁Que	-1158
▁last	-1159
▁news	-1160
ELLO	-1161
▁body	-1162
▁help	-1163
▁bo	-1164
ates	-1165
UCH	-1166
▁wel	-1167
▁fire	-1168
▁LORD	-1169
▁grief	-1170
▁sound	-1171
ETH	-1172
▁Would	-1173
▁shalt	-1174
▁enough	-1175
ns	-1176
GAR	-1177
yal	-1178
▁hang	-1179
▁Queen	-1180
▁Did	-1181
▁sec	-1182
day	-1183
▁Sh	-1184
hard	-1185
vers	-1186
▁does	-1187
▁fellow	-1188
▁gentleman	-1189
▁CLOWN	-1190
▁without	-1191
▁since	-1192
gether	-1193
▁mistress	-1194
OB	-1195
ched	-1196
ions	-1197
ring	-1198
dd	-1199
und	-1200
▁Ro	-1201
ains	-1202
▁gre	-1203
▁Look	-1204
▁queen	-1205
▁PRINCE	-1206
▁Therefore	-1207
▁On	-1208
▁rather	-1209
▁strong	-1210
▁Hath	-1211
▁York	-1212
▁care	-1213
▁seen	-1214
▁honest	-1215
.”	-1216
ily	-1217
ener	-1218
▁weep	-1219
op	-1220
ike	-1221
ues	-1222
▁AL	-1223
▁lay	-1224
alace	-1225
▁through	-1226
▁BR	-1227
▁Before	-1228
▁breath	-1229
els	-1230
iers	-1231
ject	-1232
▁enem	-1233
▁inst	-1234
▁devil	-1235
att	-1236
▁MAC	-1237
▁These	-1238
ered	-1239
▁sun	-1240
▁fault	-1241
▁IV	-1242
▁land	-1243
BER	-1244
eed	-1245
enry	-1246
▁saw	-1247
ween	-1248
▁why	-1249
▁Even	-1250
▁pers	-1251
▁purp	-1252
▁prove	-1253
ham	-1254
usic	-1255
cester	-1256
▁cousin	-1257
use	-1258
▁Tro	-1259
▁Henry	-1260
▁enter	-1261
▁somet	-1262
UTUS	-1263
▁dan	-1264
▁joy	-1265
▁SH	-1266
hold	-1267
▁arms	-1268
▁pati	-1269
▁BRUTUS	-1270
ner	-1271
▁sorrow	-1272
OP	-1273
▁sea	-1274
▁Prince	-1275
▁command	-1276
▁strange	-1277
av	-1278
▁CH	-1279
▁May	-1280
▁unc	-1281
▁welcome	-1282
ned	-1283
▁Gl	-1284
▁ent	-1285
▁lost	-1286
▁beauty	-1287
▁yourself	-1288
der	-1289
ran	-1290
▁SIR	-1291
▁oft	-1292
AGO	-1293
IMON	-1294
▁remem	-1295
aw	-1296
▁means	-1297
ERV	-1298
EUS	-1299
▁OTH	-1300
ken	-1301
jesty	-1302
▁want	-1303
▁ROSAL	-1304
▁OTHELLO	-1305
iz	-1306
▁ca	-1307
ides	-1308
▁only	-1309
▁bless	-1310
ats	-1311
▁Can	-1312
▁disp	-1313
▁grow	-1314
▁stra	-1315
let	-1316
▁GR	-1317
▁SERV	-1318
▁spirit	-1319
oe	-1320
▁Ric	-1321
▁IAGO	-1322
▁Antony	-1323
ised	-1324
▁dru	-1325
▁send	-1326
ster	-1327
▁foul	-1328
▁sing	-1329
▁Fare	-1330
gs	-1331
▁less	-1332
▁prince	-1333
▁return	-1334
▁spo	-1335
▁MIST	-1336
▁horse	-1337
▁Richard	-1338
▁fortune	-1339
▁MISTRESS	-1340
▁tem	-1341
▁talk	-1342
▁wish	-1343
▁swear	-1344
iet	-1345
ott	-1346
▁get	-1347
▁LEON	-1348
▁Whose	-1349
▁CASS	-1350
▁cry	-1351
▁dist	-1352
▁need	-1353
▁Grace	-1354
DY	-1355
▁left	-1356
▁yours	-1357
▁attend	-1358
▁thoughts	-1359
▁together	-1360
oney	-1361
ished	-1362
▁free	-1363
oucester	-1364
ENTLE	-1365
▁sight	-1366
▁GENTLE	-1367
▁desire	-1368
▁prison	-1369
rench	-1370
▁born	-1371
▁ANTONY	-1372
▁mur	-1373
▁Some	-1374
▁Though	-1375
▁country	-1376
▁Gloucester	-1377
▁Ex	-1378
LOUC	-1379
▁War	-1380
▁hard	-1381
▁read	-1382
▁GLOUC	-1383
▁pardon	-1384
▁GLOUCESTER	-1385
ift	-1386
▁BO	-1387
▁FR	-1388
ross	-1389
▁alone	-1390
rink	-1391
▁Pro	-1392
▁lies	-1393
▁prom	-1394
▁itself	-1395
▁Un	-1396
ures	-1397
▁exce	-1398
ORT	-1399
▁den	-1400
▁sick	-1401
▁wilt	-1402
ETR	-1403
outh	-1404
▁business	-1405
mer	-1406
▁Was	-1407
▁fly	-1408
▁supp	-1409
wick	-1410
▁del	-1411
▁jud	-1412
▁Till	-1413
▁pity	-1414
▁says	-1415
▁told	-1416
▁royal	-1417
ced	-1418
dom	-1419
▁COR	-1420
onder	-1421
▁Cass	-1422
▁proud	-1423
▁comfort	-1424
by	-1425
▁More	-1426
▁found	-1427
▁def	-1428
▁sad	-1429
gainst	-1430
▁vo	-1431
▁Per	-1432
The	-1433
▁half	-1434
▁seek	-1435
ertain	-1436
LI	-1437
▁Ne	-1438
▁wat	-1439
▁doubt	-1440
▁gener	-1441
med	-1442
ANIO	-1443
▁sil	-1444
▁gave	-1445
▁late	-1446
▁GENTLEMAN	-1447
ople	-1448
ounds	-1449
like	-1450
▁JUL	-1451
▁Warwick	-1452
▁cra	-1453
▁rec	-1454
▁field	-1455
▁cold	-1456
▁room	-1457
▁sister	-1458
▁Sw	-1459
▁aw	-1460
▁sk	-1461
LAND	-1462
roke	-1463
▁draw	-1464
▁work	-1465
▁vi	-1466
itor	-1467
▁CLE	-1468
▁dep	-1469
▁inf	-1470
▁fare	-1471
▁service	-1472
lish	-1473
YR	-1474
ls	-1475
ithe	-1476
▁oath	-1477
▁wear	-1478
▁looks	-1479
up	-1480
ang	-1481
ling	-1482
▁met	-1483
▁run	-1484
▁tend	-1485
▁reven	-1486
▁serve	-1487
▁French	-1488
▁bloody	-1489
aff	-1490
eter	-1491
ford	-1492
▁PAG	-1493
▁bri	-1494
▁Take	-1495
rew	-1496
oman	-1497
▁PAGE	-1498
▁each	-1499
SP	-1500
ATH	-1501
cess	-1502
▁fore	-1503
▁hate	-1504
▁quick	-1505
▁win	-1506
▁Like	-1507
▁dare	-1508
▁lose	-1509
▁between	-1510
▁BA	-1511
▁bir	-1512
▁fur	-1513
▁sen	-1514
▁sin	-1515
▁lead	-1516
bour	-1517
▁age	-1518
▁Were	-1519
▁mark	-1520
▁people	-1521
▁thyself	-1522
xt	-1523
DER	-1524
▁Say	-1525
▁LADY	-1526
▁soon	-1527
▁Edward	-1528
▁purpose	-1529
▁Yes	-1530
▁Pray	-1531
▁foot	-1532
UFF	-1533
▁Com	-1534
▁air	-1535
az	-1536
▁lear	-1537
ments	-1538
▁suff	-1539
▁times	-1540
ial	-1541
▁De	-1542
most	-1543
▁music	-1544
▁pleas	-1545
▁(	-1546
alth	-1547
vent	-1548
▁ask	-1549
▁MESS	-1550
▁dam	-1551
▁cho	-1552
▁cond	-1553
▁dream	-1554
▁danger	-1555
utus	-1556
▁knows	-1557
▁beseech	-1558
▁wa	-1559
oose	-1560
vour	-1561
▁MEN	-1562
ithee	-1563
▁TIMON	-1564
imon	-1565
aking	-1566
▁deep	-1567
▁Speak	-1568
▁company	-1569
ery	-1570
▁lives	-1571
▁loves	-1572
▁charge	-1573
IND	-1574
▁ter	-1575
▁Serv	-1576
▁knight	-1577
▁Ha	-1578
BETH	-1579
▁One	-1580
▁aff	-1581
▁min	-1582
▁grave	-1583
▁common	-1584
▁MACBETH	-1585
▁brought	-1586
,”	-1587
ORK	-1588
▁Fl	-1589
▁Le	-1590
▁Pl	-1591
arry	-1592
ices	-1593
▁HEL	-1594
INA	-1595
ATRA	-1596
INIUS	-1597
▁Most	-1598
▁YORK	-1599
▁days	-1600
OPATRA	-1601
▁yield	-1602
▁worthy	-1603
▁believe	-1604
▁CLEOPATRA	-1605
▁general	-1606
EW	-1607
GER	-1608
rest	-1609
▁PAR	-1610
▁while	-1611
▁others	-1612
USE	-1613
gue	-1614
now	-1615
YRAC	-1616
▁sit	-1617
▁SYRAC	-1618
▁MARGAR	-1619
▁Another	-1620
▁content	-1621
▁SYRACUSE	-1622
OLK	-1623
IANA	-1624
ILIA	-1625
▁drink	-1626
▁trust	-1627
fection	-1628
▁certain	-1629
▁further	-1630
TES	-1631
UNT	-1632
▁Mad	-1633
▁bar	-1634
▁wise	-1635
▁bound	-1636
▁years	-1637
▁Brutus	-1638
▁ROSALIND	-1639
LY	-1640
aim	-1641
ELIA	-1642
cause	-1643
essen	-1644
▁ANTI	-1645
▁uncle	-1646
▁warrant	-1647
bs	-1648
ICE	-1649
▁Ch	-1650
ives	-1651
▁forg	-1652
▁happy	-1653
▁MARGARET	-1654
amp	-1655
▁par	-1656
▁brave	-1657
▁virtue	-1658
DR	-1659
▁exp	-1660
▁fit	-1661
▁lad	-1662
▁sum	-1663
▁morn	-1664
▁known	-1665
▁Mistress	-1666
hil	-1667
ief	-1668
ITIZ	-1669
enty	-1670
▁cut	-1671
▁KATH	-1672
▁holy	-1673
▁save	-1674
ITIZEN	-1675
▁CITIZEN	-1676
▁pleasure	-1677
EY	-1678
oss	-1679
ible	-1680
▁act	-1681
thing	-1682
estion	-1683
kes	-1684
oor	-1685
▁cor	-1686
▁pay	-1687
▁woe	-1688
ENGER	-1689
▁self	-1690
▁Farewell	-1691
▁MESSENGER	-1692
olk	-1693
▁Had	-1694
▁inc	-1695
▁sur	-1696
▁Marry	-1697
▁given	-1698
ROM	-1699
VIA	-1700
the	-1701
▁bold	-1702
▁past	-1703
onight	-1704
▁black	-1705
▁SERVANT	-1706
▁Alas	-1707
▁poss	-1708
▁marry	-1709
▁money	-1710
hal	-1711
▁LEAR	-1712
▁side	-1713
ries	-1714
▁col	-1715
▁ste	-1716
▁Room	-1717
▁open	-1718
▁sake	-1719
morrow	-1720
▁ground	-1721
▁gracious	-1722
▁ac	-1723
ANUS	-1724
▁WAR	-1725
aught	-1726
▁rich	-1727
bb	-1728
▁See	-1729
▁Page	-1730
▁hell	-1731
▁praise	-1732
▁sovere	-1733
IRD	-1734
WICK	-1735
oward	-1736
▁Lady	-1737
▁PAND	-1738
▁Tell	-1739
▁THIRD	-1740
▁point	-1741
AS	-1742
aud	-1743
oint	-1744
▁ten	-1745
▁FORD	-1746
▁Make	-1747
▁ears	-1748
▁Madam	-1749
▁Since	-1750
▁Attend	-1751
▁WARWICK	-1752
OG	-1753
OT	-1754
ERS	-1755
lly	-1756
WARD	-1757
▁div	-1758
▁eat	-1759
▁Thus	-1760
▁burn	-1761
▁chee	-1762
▁gall	-1763
▁heavy	-1764
▁report	-1765
ELL	-1766
gel	-1767
ots	-1768
iece	-1769
▁goes	-1770
▁prof	-1771
▁tomorrow	-1772
ush	-1773
▁em	-1774
▁hot	-1775
▁beat	-1776
▁short	-1777
▁women	-1778
▁English	-1779
▁tonight	-1780
oof	-1781
▁PER	-1782
▁vis	-1783
▁themselves	-1784
DO	-1785
OLUS	-1786
cent	-1787
form	-1788
▁DON	-1789
▁gar	-1790
▁wis	-1791
ortal	-1792
▁requ	-1793
PHOLUS	-1794
▁mouth	-1795
▁hearts	-1796
▁tender	-1797
▁ANTIPHOLUS	-1798
ec	-1799
ship	-1800
▁sign	-1801
HN	-1802
UCK	-1803
▁JO	-1804
▁judge	-1805
▁mercy	-1806
▁person	-1807
inks	-1808
▁enemy	-1809
iant	-1810
owers	-1811
▁Away	-1812
▁weak	-1813
esh	-1814
gar	-1815
ote	-1816
▁Wh	-1817
ceed	-1818
ined	-1819
▁four	-1820
▁merry	-1821
▁remember	-1822
ip	-1823
alt	-1824
▁EM	-1825
▁Ma	-1826
ally	-1827
▁VAL	-1828
ondon	-1829
▁JOHN	-1830
▁lips	-1831
▁mock	-1832
▁suit	-1833
▁knave	-1834
▁EMILIA	-1835
▁London	-1836
▁confess	-1837
▁subject	-1838
ray	-1839
▁est	-1840
umber	-1841
▁knew	-1842
▁course	-1843
▁farewell	-1844
▁patience	-1845
ONA	-1846
cha	-1847
ARUS	-1848
astle	-1849
▁neither	-1850
uff	-1851
ated	-1852
▁Out	-1853
▁TIT	-1854
▁att	-1855
▁woo	-1856
▁hair	-1857
▁ring	-1858
▁behold	-1859
▁ANTONIO	-1860
rs	-1861
▁1	-1862
alm	-1863
len	-1864
▁Ad	-1865
atis	-1866
▁Con	-1867
▁dro	-1868
▁pen	-1869
▁deed	-1870
▁desp	-1871
▁next	-1872
▁sons	-1873
▁palace	-1874
ask	-1875
ram	-1876
ires	-1877
▁bos	-1878
▁base	-1879
▁HELEN	-1880
▁Their	-1881
▁plain	-1882
▁touch	-1883
▁change	-1884
UD	-1885
ca	-1886
com	-1887
▁fea	-1888
▁fast	-1889
▁haste	-1890
vo	-1891
sue	-1892
LAUD	-1893
aste	-1894
▁emb	-1895
▁CLAUD	-1896
▁speed	-1897
▁voice	-1898
▁EDWARD	-1899
▁straight	-1900
ior	-1901
▁Ah	-1902
▁dev	-1903
▁gro	-1904
▁red	-1905
▁batt	-1906
▁bosom	-1907
EO	-1908
DEM	-1909
MEO	-1910
vel	-1911
uous	-1912
▁DES	-1913
▁dog	-1914
▁Must	-1915
DEMONA	-1916
▁ROMEO	-1917
▁white	-1918
▁DESDEMONA	-1919
▁gentlemen	-1920
pr	-1921
ACH	-1922
ads	-1923
ENIUS	-1924
▁Love	-1925
▁canst	-1926
▁soldier	-1927
▁MENENIUS	-1928
▁question	-1929
pl	-1930
ges	-1931
▁cle	-1932
ROMIO	-1933
▁dark	-1934
▁took	-1935
▁water	-1936
▁worse	-1937
▁DROMIO	-1938
▁Should	-1939
▁entreat	-1940
▁CO	-1941
ague	-1942
▁Par	-1943
▁Tit	-1944
▁Tru	-1945
▁feel	-1946
▁wret	-1947
▁wonder	-1948
▁sovereign	-1949
no	-1950
ites	-1951
ethinks	-1952
▁Hector	-1953
▁toward	-1954
essenger	-1955
▁CLAUDIO	-1956
▁pu	-1957
ones	-1958
ully	-1959
ities	-1960
▁pret	-1961
▁thri	-1962
▁town	-1963
▁scorn	-1964
▁servant	-1965
!—	-1966
IDA	-1967
WNE	-1968
ABEL	-1969
▁FRI	-1970
stand	-1971
▁BERO	-1972
▁quar	-1973
▁Sweet	-1974
▁BEROWNE	-1975
▁something	-1976
MA	-1977
Tw	-1978
▁kne	-1979
▁ord	-1980
UCHIO	-1981
▁PETR	-1982
▁door	-1983
▁duty	-1984
▁move	-1985
▁wall	-1986
▁favour	-1987
▁PETRUCHIO	-1988
to	-1989
cks	-1990
ixt	-1991
▁cr	-1992
▁Des	-1993
▁OLI	-1994
▁glad	-1995
▁appear	-1996
▁streng	-1997
gg	-1998
▁city	-1999
▁walk	-2000
▁sport	-2001
▁watch	-2002
▁traitor	-2003
▁valiant	-2004
IER	-2005
irm	-2006
▁ow	-2007
▁ta	-2008
each	-2009
rows	-2010
▁PED	-2011
▁Such	-2012
▁prop	-2013
ourish	-2014
▁coward	-2015
▁OR	-2016
ends	-2017
▁hur	-2018
▁note	-2019
ENTINE	-2020
▁CRESS	-2021
▁appro	-2022
▁creat	-2023
▁CRESSIDA	-2024
▁VALENTINE	-2025
urs	-2026
hood	-2027
▁Fal	-2028
▁unt	-2029
ABELLA	-2030
▁needs	-2031
▁pluck	-2032
▁trump	-2033
▁justice	-2034
TA	-2035
OBY	-2036
▁Se	-2037
ready	-2038
▁HOST	-2039
▁TOBY	-2040
▁PANDARUS	-2041
HAM	-2042
IOL	-2043
VOL	-2044
bury	-2045
▁bad	-2046
VOLIO	-2047
▁Athe	-2048
▁today	-2049
▁coming	-2050
▁speech	-2051
▁twenty	-2052
of	-2053
bly	-2054
rah	-2055
▁VI	-2056
▁Bel	-2057
riage	-2058
▁lust	-2059
INGHAM	-2060
▁Peace	-2061
▁Timon	-2062
▁hours	-2063
IOLANUS	-2064
▁counsel	-2065
▁presently	-2066
▁CORIOLANUS	-2067
!”	-2068
lex	-2069
▁NOR	-2070
▁exc	-2071
▁ext	-2072
ptain	-2073
▁harm	-2074
▁prin	-2075
▁didst	-2076
▁flesh	-2077
▁action	-2078
TEUS	-2079
dden	-2080
mber	-2081
▁opp	-2082
ament	-2083
▁pale	-2084
ainted	-2085
▁Romeo	-2086
▁stands	-2087
▁PROTEUS	-2088
▁married	-2089
▁morning	-2090
dge	-2091
fter	-2092
▁mod	-2093
liver	-2094
▁loss	-2095
▁guard	-2096
▁spoke	-2097
▁Against	-2098
aid	-2099
rey	-2100
inal	-2101
▁CAP	-2102
▁und	-2103
▁HELENA	-2104
▁respect	-2105
▁revenge	-2106
vol	-2107
cept	-2108
feit	-2109
rous	-2110
▁POL	-2111
▁stir	-2112
▁COUNT	-2113
▁Stand	-2114
oly	-2115
▁du	-2116
cius	-2117
ured	-2118
▁bro	-2119
▁ran	-2120
▁BUCK	-2121
▁moon	-2122
▁prep	-2123
▁close	-2124
▁almost	-2125
▁fortun	-2126
▁strength	-2127
▁BUCKINGHAM	-2128
ses	-2129
▁JA	-2130
▁Jul	-2131
▁cap	-2132
▁reg	-2133
▁tit	-2134
▁lack	-2135
▁grant	-2136
▁liege	-2137
▁withal	-2138
▁soldiers	-2139
oll	-2140
ESAR	-2141
ying	-2142
▁emp	-2143
OLLES	-2144
▁sigh	-2145
▁CAESAR	-2146
▁LUCIUS	-2147
▁majesty	-2148
▁PAROLLES	-2149
ines	-2150
▁ras	-2151
▁Hast	-2152
▁trou	-2153
▁Count	-2154
▁become	-2155
▁mortal	-2156
▁offend	-2157
▁already	-2158
LOW	-2159
▁Bl	-2160
▁IS	-2161
ESUS	-2162
ench	-2163
▁Cap	-2164
▁EPH	-2165
ALLOW	-2166
▁SUFF	-2167
▁wild	-2168
▁Cassio	-2169
▁Gentle	-2170
▁excell	-2171
▁murder	-2172
▁EPHESUS	-2173
▁SHALLOW	-2174
▁SUFFOLK	-2175
bit	-2176
umb	-2177
via	-2178
ALAM	-2179
▁low	-2180
▁forb	-2181
▁soft	-2182
▁wars	-2183
ALAMON	-2184
▁feast	-2185
▁sense	-2186
▁slain	-2187
▁PALAMON	-2188
oop	-2189
ved	-2190
▁bur	-2191
▁scar	-2192
▁Claud	-2193
▁gives	-2194
▁CASSIUS	-2195
ught	-2196
▁ind	-2197
ution	-2198
▁bond	-2199
▁dire	-2200
▁hide	-2201
▁vile	-2202
astard	-2203
▁beast	-2204
▁const	-2205
▁inter	-2206
▁sworn	-2207
▁battle	-2208
edi	-2209
cher	-2210
▁Pom	-2211
▁disg	-2212
▁heir	-2213
▁TITUS	-2214
▁mount	-2215
▁breast	-2216
▁having	-2217
▁office	-2218
▁heavens	-2219
▁receive	-2220
TR	-2221
als	-2222
rel	-2223
set	-2224
▁BE	-2225
ired	-2226
rief	-2227
▁Ear	-2228
▁book	-2229
▁shad	-2230
cience	-2231
▁Attendants	-2232
CUS	-2233
gry	-2234
pes	-2235
▁FL	-2236
▁ty	-2237
DICK	-2238
pped	-2239
urse	-2240
vern	-2241
▁Ros	-2242
▁add	-2243
▁shi	-2244
ORTIA	-2245
▁BENE	-2246
▁rage	-2247
▁writ	-2248
▁Being	-2249
▁PEDRO	-2250
▁ready	-2251
▁PORTIA	-2252
▁speaks	-2253
▁sudden	-2254
▁BENEDICK	-2255
OW	-2256
ird	-2257
ron	-2258
▁id	-2259
ENCE	-2260
ILUS	-2261
▁TRO	-2262
▁fra	-2263
▁dish	-2264
▁Lords	-2265
▁above	-2266
▁begin	-2267
▁KATHER	-2268
▁suffer	-2269
▁TROILUS	-2270
▁kingdom	-2271
▁prithee	-2272
CIT	-2273
rem	-2274
▁EL	-2275
CITE	-2276
▁Yea	-2277
▁mot	-2278
staff	-2279
▁Call	-2280
▁High	-2281
▁deny	-2282
▁jest	-2283
▁slave	-2284
▁wound	-2285
▁ARCITE	-2286
▁Majesty	-2287
ny	-2288
ashi	-2289
etch	-2290
hind	-2291
ffect	-2292
▁priv	-2293
ardinal	-2294
▁Am	-2295
▁Qu	-2296
empt	-2297
rist	-2298
▁Cor	-2299
▁ble	-2300
▁Doth	-2301
▁cross	-2302
▁sever	-2303
▁living	-2304
▁thanks	-2305
▁Claudio	-2306
nk	-2307
ATO	-2308
bey	-2309
tain	-2310
▁SOL	-2311
▁abs	-2312
▁fam	-2313
▁rel	-2314
▁Char	-2315
▁Hear	-2316
▁dread	-2317
▁truly	-2318
▁whole	-2319
▁instru	-2320
▁pretty	-2321
▁strike	-2322
▁chamber	-2323
▁passion	-2324
▁ISABELLA	-2325
▁children	-2326
▁honourable	-2327
IET	-2328
OTH	-2329
une	-2330
aken	-2331
osed	-2332
▁MAL	-2333
▁pap	-2334
▁Suff	-2335
▁mist	-2336
▁Never	-2337
▁JULIET	-2338
▁either	-2339
▁loving	-2340
▁Fortune	-2341
sc	-2342
▁Ab	-2343
▁ve	-2344
▁KENT	-2345
▁form	-2346
▁kings	-2347
▁liber	-2348
▁marriage	-2349
den	-2350
mon	-2351
resh	-2352
▁stru	-2353
antage	-2354
▁laugh	-2355
▁often	-2356
▁steal	-2357
▁Lucius	-2358
▁spirits	-2359
▁lordship	-2360
▁conscience	-2361
IG	-2362
SC	-2363
▁TR	-2364
ilus	-2365
orth	-2366
over	-2367
▁pit	-2368
hilst	-2369
▁seems	-2370
▁Castle	-2371
▁Palace	-2372
▁called	-2373
▁LEONTES	-2374
▁letters	-2375
▁Falstaff	-2376
▁understand	-2377
ler	-2378
▁Dis	-2379
▁Mac	-2380
▁SIC	-2381
▁bow	-2382
ISTOL	-2383
claim	-2384
artius	-2385
asters	-2386
undred	-2387
▁loved	-2388
▁PISTOL	-2389
▁morrow	-2390
▁affection	-2391
▁ag	-2392
▁Men	-2393
▁Sil	-2394
▁god	-2395
▁mal	-2396
fully	-2397
oured	-2398
▁fing	-2399
▁Helen	-2400
▁deeds	-2401
▁fashi	-2402
▁resol	-2403
YM	-2404
alb	-2405
▁Fa	-2406
mand	-2407
umph	-2408
▁fat	-2409
ICLES	-2410
▁cast	-2411
▁Harry	-2412
▁Roman	-2413
▁force	-2414
▁pride	-2415
▁PERICLES	-2416
▁anything	-2417
YS	-2418
ina	-2419
▁Ty	-2420
IOLA	-2421
ging	-2422
ting	-2423
▁Cle	-2424
▁Ven	-2425
▁got	-2426
▁lim	-2427
atisf	-2428
▁case	-2429
▁chur	-2430
ingham	-2431
▁VIOLA	-2432
▁behind	-2433
▁labour	-2434
▁second	-2435
▁hundred	-2436
▁wouldst	-2437
▁fortunes	-2438
ANS	-2439
TUS	-2440
raw	-2441
▁ANG	-2442
▁Fri	-2443
▁SEN	-2444
▁ser	-2445
ESEUS	-2446
LANDO	-2447
▁post	-2448
▁tent	-2449
▁wood	-2450
ations	-2451
▁street	-2452
▁LEONATO	-2453
▁ORLANDO	-2454
▁THESEUS	-2455
▁PH	-2456
ancy	-2457
arum	-2458
fere	-2459
▁bit	-2460
▁cru	-2461
▁sho	-2462
night	-2463
ument	-2464
▁Buck	-2465
▁acqu	-2466
▁cheer	-2467
▁souls	-2468
▁effect	-2469
▁poison	-2470
▁secret	-2471
▁possess	-2472
▁witness	-2473
AU	-2474
IP	-2475
_,	-2476
MOG	-2477
iew	-2478
▁EN	-2479
▁SPE	-2480
▁eas	-2481
▁sim	-2482
MOGEN	-2483
▁fill	-2484
▁hurt	-2485
arence	-2486
▁IMOGEN	-2487
▁OLIVIA	-2488
▁ladies	-2489
▁deliver	-2490
▁offence	-2491
▁treason	-2492
ERN	-2493
anc	-2494
ona	-2495
▁Em	-2496
▁ST	-2497
enge	-2498
ited	-2499
▁HOR	-2500
▁adm	-2501
▁reb	-2502
▁exec	-2503
▁SPEED	-2504
▁heads	-2505
▁parts	-2506
▁chance	-2507
▁Suffolk	-2508
▁SICINIUS	-2509
eep	-2510
▁op	-2511
▁ut	-2512
bled	-2513
▁mir	-2514
▁Troy	-2515
▁died	-2516
▁five	-2517
▁host	-2518
▁Pompe	-2519
▁conqu	-2520
▁offer	-2521
▁Athens	-2522
▁Christ	-2523
▁Servant	-2524
▁Troilus	-2525
▁enemies	-2526
▁Clarence	-2527
ELO	-2528
ieu	-2529
iol	-2530
▁GU	-2531
ANCE	-2532
ises	-2533
king	-2534
▁BOY	-2535
▁Luc	-2536
SPERO	-2537
▁CHAR	-2538
▁Sign	-2539
▁gift	-2540
▁pain	-2541
▁tale	-2542
▁Paris	-2543
▁teach	-2544
▁ANGELO	-2545
▁longer	-2546
▁mighty	-2547
▁fashion	-2548
▁PROSPERO	-2549
ub	-2550
ARB	-2551
uri	-2552
gers	-2553
▁ALL	-2554
▁Hea	-2555
▁vow	-2556
ARBUS	-2557
▁along	-2558
▁drown	-2559
▁issue	-2560
▁perceive	-2561
▁Buckingham	-2562
.’	-2563
ened	-2564
pher	-2565
▁Sal	-2566
▁lov	-2567
▁ENOB	-2568
▁lion	-2569
▁shows	-2570
▁Pompey	-2571
▁health	-2572
▁revere	-2573
▁Because	-2574
▁ENOBARBUS	-2575
▁excellent	-2576
EPH	-2577
cus	-2578
▁ap	-2579
▁jo	-2580
ider	-2581
▁Off	-2582
▁buy	-2583
▁din	-2584
eding	-2585
▁Know	-2586
▁beard	-2587
▁birth	-2588
▁title	-2589
▁valour	-2590
ety	-2591
They	-2592
aunt	-2593
chan	-2594
ners	-2595
▁Ham	-2596
▁Ind	-2597
▁unk	-2598
peror	-2599
▁SOLD	-2600
▁Talb	-2601
▁bears	-2602
▁least	-2603
▁noise	-2604
▁takes	-2605
▁CASSIO	-2606
▁worship	-2607
QU	-2608
ATR	-2609
ONE	-2610
ils	-2611
ATIO	-2612
CTOR	-2613
ages	-2614
ales	-2615
olph	-2616
twas	-2617
▁SIL	-2618
▁unw	-2619
right	-2620
under	-2621
▁Hold	-2622
▁publ	-2623
▁qual	-2624
▁shar	-2625
ealous	-2626
othing	-2627
▁LUCIO	-2628
▁quoth	-2629
▁small	-2630
▁worst	-2631
▁choose	-2632
▁satisf	-2633
▁HORATIO	-2634
▁patient	-2635
so	-2636
ze	-2637
ual	-2638
rust	-2639
▁Bes	-2640
▁CON	-2641
▁occ	-2642
▁Earl	-2643
▁Ford	-2644
▁fine	-2645
▁kept	-2646
▁seal	-2647
▁Antonio	-2648
▁SOLDIER	-2649
▁commend	-2650
▁promise	-2651
▁presence	-2652
▁ourselves	-2653
OLY	-2654
ley	-2655
rer	-2656
▁FO	-2657
▁er	-2658
▁pi	-2659
ural	-2660
▁Bet	-2661
▁ign	-2662
▁wed	-2663
▁Bard	-2664
▁view	-2665
▁CELIA	-2666
▁curse	-2667
▁Hamlet	-2668
▁Talbot	-2669
▁forget	-2670
▁Signior	-2671
▁forward	-2672
▁Bardolph	-2673
▁Highness	-2674
▁entertain	-2675
SE	-2676
BAN	-2677
ume	-2678
▁Cy	-2679
nown	-2680
▁BER	-2681
▁Hark	-2682
▁Kate	-2683
▁Mine	-2684
▁dull	-2685
▁safe	-2686
▁First	-2687
▁JULIA	-2688
▁march	-2689
▁paper	-2690
▁delight	-2691
▁herself	-2692
Th	-2693
ify	-2694
anio	-2695
rupt	-2696
▁Val	-2697
▁arg	-2698
▁bab	-2699
▁sor	-2700
illes	-2701
▁sole	-2702
▁succ	-2703
▁went	-2704
ATRICE	-2705
▁PRINC	-2706
▁Titus	-2707
▁carry	-2708
▁fools	-2709
▁fresh	-2710
▁going	-2711
▁write	-2712
▁depart	-2713
▁consent	-2714
▁flatter	-2715
▁BEATRICE	-2716
▁dangerous	-2717
sp	-2718
▁sn	-2719
▁dri	-2720
▁mid	-2721
▁tor	-2722
▁Mark	-2723
▁blow	-2724
▁vain	-2725
▁Saint	-2726
▁angry	-2727
▁fetch	-2728
▁neigh	-2729
▁order	-2730
▁foolish	-2731
▁virtuous	-2732
BUR	-2733
gin	-2734
ude	-2735
▁Gu	-2736
aves	-2737
ilia	-2738
sper	-2739
▁HER	-2740
▁MUR	-2741
▁POM	-2742
ingly	-2743
▁Leon	-2744
▁Sold	-2745
▁star	-2746
▁viol	-2747
▁year	-2748
▁round	-2749
▁MURDER	-2750
▁banish	-2751
▁faults	-2752
▁wisdom	-2753
▁Martius	-2754
▁proceed	-2755
▁Cardinal	-2756
▁PRINCESS	-2757
ax	-2758
IZAB	-2759
TRAM	-2760
iles	-2761
orge	-2762
▁GON	-2763
▁SAL	-2764
twere	-2765
elcome	-2766
▁Angel	-2767
▁among	-2768
▁brief	-2769
▁throw	-2770
IZABETH	-2771
▁Heaven	-2772
▁BERTRAM	-2773
▁quickly	-2774
▁ELIZABETH	-2775
su	-2776
▁Tw	-2777
MADO	-2778
cted	-2779
gare	-2780
leep	-2781
▁Som	-2782
▁THE	-2783
icked	-2784
ledge	-2785
▁BAST	-2786
▁Faith	-2787
▁POMPE	-2788
▁Rosal	-2789
▁blind	-2790
▁green	-2791
▁ARMADO	-2792
▁Angelo	-2793
▁BASTARD	-2794
▁Nothing	-2795
▁Messenger	-2796
ato	-2797
OTSP	-2798
URSE	-2799
▁APE	-2800
broke	-2801
▁horn	-2802
▁pure	-2803
MANTUS	-2804
OTSPUR	-2805
▁EDGAR	-2806
▁NURSE	-2807
▁breat	-2808
▁forsw	-2809
▁quiet	-2810
▁troth	-2811
▁POMPEY	-2812
▁golden	-2813
▁humour	-2814
▁HOTSPUR	-2815
▁jealous	-2816
▁COUNTESS	-2817
▁APEMANTUS	-2818
gl	-2819
▁PO	-2820
OLPH	-2821
used	-2822
asion	-2823
eness	-2824
▁BARD	-2825
▁Jove	-2826
▁Under	-2827
▁chast	-2828
▁cruel	-2829
▁gates	-2830
▁piece	-2831
▁shake	-2832
▁bright	-2833
▁blessed	-2834
▁BARDOLPH	-2835
▁MURDERER	-2836
ago	-2837
eem	-2838
BAST	-2839
ULET	-2840
ames	-2841
anch	-2842
ters	-2843
▁inv	-2844
▁sac	-2845
▁won	-2846
ature	-2847
erset	-2848
inius	-2849
▁prot	-2850
▁stud	-2851
▁conce	-2852
▁learn	-2853
▁pract	-2854
▁whore	-2855
BASTIAN	-2856
▁CAPULET	-2857
▁prayers	-2858
▁princes	-2859
▁SEBASTIAN	-2860
FEW	-2861
ILL	-2862
▁Ap	-2863
▁RE	-2864
▁Ri	-2865
▁da	-2866
BURY	-2867
alam	-2868
bert	-2869
ilty	-2870
▁Tom	-2871
▁dec	-2872
▁jew	-2873
▁nob	-2874
ility	-2875
▁Brit	-2876
▁wast	-2877
▁LAFEW	-2878
▁Think	-2879
osition	-2880
▁quarrel	-2881
▁Somerset	-2882
He	-2883
ug	-2884
joy	-2885
ATOR	-2886
idow	-2887
ocks	-2888
▁ele	-2889
▁saf	-2890
▁smo	-2891
inion	-2892
▁Fair	-2893
▁Whom	-2894
▁camp	-2895
▁evil	-2896
▁temp	-2897
▁Great	-2898
▁match	-2899
▁sharp	-2900
▁deserve	-2901
ys	-2902
BRO	-2903
EST	-2904
ror	-2905
ding	-2906
iled	-2907
▁DAU	-2908
BROKE	-2909
ONIUS	-2910
icers	-2911
icles	-2912
itted	-2913
▁BASS	-2914
▁Gree	-2915
▁Into	-2916
▁dest	-2917
▁feed	-2918
▁fier	-2919
▁prov	-2920
▁frown	-2921
▁taken	-2922
▁awhile	-2923
▁bitter	-2924
▁contin	-2925
▁fearful	-2926
▁masters	-2927
▁measure	-2928
WAL	-2929
ald	-2930
▁di	-2931
▁Ach	-2932
▁enc	-2933
▁sch	-2934
▁ver	-2935
force	-2936
pherd	-2937
▁anon	-2938
▁laid	-2939
▁summer	-2940
▁thence	-2941
▁Margare	-2942
▁counter	-2943
NE	-2944
mbl	-2945
non	-2946
arge	-2947
icul	-2948
▁Cam	-2949
▁Stay	-2950
▁army	-2951
▁cred	-2952
▁drum	-2953
▁sorry	-2954
▁stood	-2955
▁Unless	-2956
ts	-2957
oes	-2958
▁LO	-2959
VIUS	-2960
ease	-2961
icer	-2962
ided	-2963
▁CAM	-2964
▁Jew	-2965
▁med	-2966
▁sus	-2967
itors	-2968
▁fled	-2969
▁stop	-2970
▁stor	-2971
centio	-2972
▁Those	-2973
▁alive	-2974
▁blame	-2975
▁calls	-2976
▁glory	-2977
▁public	-2978
▁shadow	-2979
▁Welcome	-2980
▁greater	-2981
▁honesty	-2982
▁Margaret	-2983
ef	-2984
ENS	-2985
ked	-2986
▁Ge	-2987
▁PA	-2988
arch	-2989
▁MER	-2990
▁cir	-2991
chief	-2992
▁lend	-2993
▁sort	-2994
stance	-2995
though	-2996
▁glass	-2997
▁pains	-2998
▁shape	-2999
▁Within	-3000
▁cheeks	-3001
▁colour	-3002
▁dinner	-3003
▁dishon	-3004
▁manner	-3005
▁plague	-3006
▁remain	-3007
▁several	-3008
vey	-3009
ared	-3010
here	-3011
isho	-3012
read	-3013
▁DEM	-3014
▁LYS	-3015
▁mut	-3016
▁ref	-3017
▁whi	-3018
▁ANDR	-3019
▁ANNE	-3020
▁Mont	-3021
▁inno	-3022
▁list	-3023
▁ours	-3024
ETRIUS	-3025
▁cheek	-3026
▁sland	-3027
▁swift	-3028
▁TRANIO	-3029
▁forgot	-3030
▁scarce	-3031
▁Cassius	-3032
▁Without	-3033
▁bastard	-3034
▁Achilles	-3035
▁banished	-3036
▁DEMETRIUS	-3037
phe	-3038
ITES	-3039
rate	-3040
▁Sen	-3041
▁equ	-3042
▁mel	-3043
▁Alex	-3044
▁Dost	-3045
▁trib	-3046
unning	-3047
▁THERS	-3048
▁brain	-3049
▁concl	-3050
▁THERSITES	-3051
ANO	-3052
ians	-3053
▁ADR	-3054
▁Both	-3055
▁Poor	-3056
▁gent	-3057
▁obey	-3058
▁thro	-3059
▁FRIAR	-3060
▁ignor	-3061
▁proof	-3062
▁proper	-3063
▁captain	-3064
▁Soldiers	-3065
gy	-3066
mn	-3067
OLS	-3068
afe	-3069
cal	-3070
cul	-3071
hys	-3072
airs	-3073
head	-3074
▁Art	-3075
▁Pri	-3076
▁amb	-3077
▁obs	-3078
▁pet	-3079
▁Cont	-3080
▁POST	-3081
▁rain	-3082
entine	-3083
▁faire	-3084
▁grand	-3085
▁walls	-3086
▁wounds	-3087
▁HOSTESS	-3088
▁wretched	-3089
ob	-3090
ane	-3091
loy	-3092
mia	-3093
▁EV	-3094
THUM	-3095
itiz	-3096
more	-3097
▁Ere	-3098
▁Fie	-3099
▁dif	-3100
▁try	-3101
cient	-3102
hysic	-3103
▁beha	-3104
▁boys	-3105
▁tear	-3106
▁EVANS	-3107
▁gross	-3108
▁month	-3109
BERLAND	-3110
▁ANDREW	-3111
▁govern	-3112
▁struck	-3113
▁wealth	-3114
▁NORTHUM	-3115
▁SENATOR	-3116
▁instant	-3117
▁success	-3118
▁MALVOLIO	-3119
▁prisoner	-3120
▁NORTHUMBERLAND	-3121
bed	-3122
sed	-3123
▁AG	-3124
▁Hu	-3125
▁Po	-3126
▁ay	-3127
▁es	-3128
▁ur	-3129
anus	-3130
▁inj	-3131
ENTIO	-3132
ators	-3133
▁dies	-3134
▁gain	-3135
▁broke	-3136
▁shore	-3137
▁stain	-3138
▁taste	-3139
▁church	-3140
▁double	-3141
▁fellows	-3142
▁request	-3143
▁thither	-3144
▁trumpet	-3145
▁POLONIUS	-3146
iful	-3147
▁Ple	-3148
▁cre	-3149
▁hun	-3150
arden	-3151
▁Anne	-3152
▁Moor	-3153
▁rose	-3154
▁wert	-3155
▁wine	-3156
alamon	-3157
perate	-3158
▁clear	-3159
▁drunk	-3160
▁folly	-3161
▁Coriol	-3162
▁defend	-3163
▁condition	-3164
DE	-3165
erc	-3166
ker	-3167
omp	-3168
▁Fo	-3169
▁fi	-3170
cite	-3171
▁leg	-3172
▁vir	-3173
▁Bass	-3174
▁HERM	-3175
▁Iago	-3176
▁Lest	-3177
▁MOTH	-3178
▁bare	-3179
▁brow	-3180
▁circ	-3181
▁held	-3182
▁wits	-3183
▁catch	-3184
▁deare	-3185
▁purse	-3186
▁rough	-3187
▁weary	-3188
▁beggar	-3189
▁demand	-3190
▁goodly	-3191
▁import	-3192
▁motion	-3193
▁because	-3194
▁cunning	-3195
▁flowers	-3196
og	-3197
BEL	-3198
ETER	-3199
aked	-3200
▁CYM	-3201
▁ESC	-3202
▁six	-3203
▁van	-3204
uthor	-3205
▁COST	-3206
▁Jack	-3207
▁dece	-3208
▁heat	-3209
▁loud	-3210
▁mere	-3211
▁song	-3212
▁ways	-3213
BELINE	-3214
ressed	-3215
▁bones	-3216
▁drawn	-3217
▁dwell	-3218
▁faint	-3219
▁trans	-3220
ference	-3221
▁powers	-3222
▁silver	-3223
▁spring	-3224
▁wanton	-3225
▁COSTARD	-3226
▁hearing	-3227
▁opinion	-3228
▁CYMBELINE	-3229
_]	-3230
LEN	-3231
cer	-3232
edy	-3233
atri	-3234
host	-3235
vell	-3236
▁Bol	-3237
▁pun	-3238
▁unf	-3239
▁fame	-3240
▁rise	-3241
hamber	-3242
▁After	-3243
▁Bring	-3244
▁House	-3245
▁compl	-3246
▁falls	-3247
▁fears	-3248
▁hadst	-3249
▁bestow	-3250
▁excuse	-3251
▁priest	-3252
▁embrace	-3253
▁precious	-3254
▁KATHERINA	-3255
GH	-3256
MUN	-3257
bus	-3258
rac	-3259
zen	-3260
▁Ag	-3261
▁Me	-3262
ILLO	-3263
MUND	-3264
▁Pet	-3265
usion	-3266
▁Keep	-3267
▁Wilt	-3268
▁fail	-3269
ifford	-3270
ission	-3271
▁Tower	-3272
▁borne	-3273
▁dance	-3274
▁monst	-3275
▁Boling	-3276
▁EDMUND	-3277
▁George	-3278
▁Indeed	-3279
▁forbid	-3280
▁rememb	-3281
▁wicked	-3282
▁liberty	-3283
▁highness	-3284
▁methinks	-3285
▁Bolingbroke	-3286
TEN	-3287
ash	-3288
ize	-3289
▁Im	-3290
ALUS	-3291
LYSS	-3292
aced	-3293
ards	-3294
reed	-3295
with	-3296
▁Dem	-3297
▁eld	-3298
comes	-3299
enter	-3300
idius	-3301
ishop	-3302
▁West	-3303
▁corn	-3304
▁mour	-3305
▁neck	-3306
▁rude	-3307
LYSSES	-3308
icious	-3309
▁While	-3310
▁aside	-3311
▁aught	-3312
▁stars	-3313
▁steel	-3314
▁ESCALUS	-3315
▁Palamon	-3316
▁ULYSSES	-3317
▁courtes	-3318
▁private	-3319
▁tongues	-3320
▁creature	-3321
▁knowledge	-3322
?—	-3323
CK	-3324
ISH	-3325
YLO	-3326
eat	-3327
min	-3328
▁TO	-3329
DUFF	-3330
auph	-3331
beth	-3332
oved	-3333
OLSEY	-3334
YLOCK	-3335
ander	-3336
otten	-3337
▁DUCH	-3338
▁Unto	-3339
▁ship	-3340
auphin	-3341
isbury	-3342
▁BOYET	-3343
▁Could	-3344
▁terms	-3345
▁visit	-3346
▁WOLSEY	-3347
▁choice	-3348
▁maiden	-3349
▁threat	-3350
▁ADRIANA	-3351
▁DUCHESS	-3352
▁Dauphin	-3353
▁MACDUFF	-3354
▁SHYLOCK	-3355
▁Shallow	-3356
▁ancient	-3357
▁learned	-3358
▁perform	-3359
▁Clifford	-3360
▁princely	-3361
▁Salisbury	-3362
▁judgement	-3363
ek	-3364
sh	-3365
ERD	-3366
HUM	-3367
ria	-3368
LIFF	-3369
dain	-3370
rius	-3371
unes	-3372
vail	-3373
▁Lea	-3374
▁fig	-3375
▁fru	-3376
▁ins	-3377
▁sto	-3378
HUMUS	-3379
chant	-3380
orthy	-3381
▁Hero	-3382
▁bend	-3383
▁debt	-3384
▁wait	-3385
▁Caius	-3386
▁MARIA	-3387
▁North	-3388
▁holds	-3389
▁persu	-3390
▁rogue	-3391
▁smile	-3392
▁Juliet	-3393
▁guilty	-3394
▁physic	-3395
ancaster	-3396
▁Macbeth	-3397
umberland	-3398
▁shouldst	-3399
▁POSTHUMUS	-3400
TI	-3401
jo	-3402
ua	-3403
IMO	-3404
▁ir	-3405
TIUS	-3406
ways	-3407
▁due	-3408
▁owe	-3409
ellow	-3410
ining	-3411
orous	-3412
▁HORT	-3413
▁IACH	-3414
▁foes	-3415
▁legs	-3416
▁vent	-3417
▁grows	-3418
▁knock	-3419
▁smell	-3420
▁spend	-3421
▁story	-3422
▁third	-3423
ancholy	-3424
itizens	-3425
utation	-3426
▁CLOTEN	-3427
▁flower	-3428
▁forest	-3429
▁leaves	-3430
▁HORTENS	-3431
▁IACHIMO	-3432
▁Methinks	-3433
▁Lancaster	-3434
▁Valentine	-3435
▁greatness	-3436
GE	-3437
ays	-3438
lic	-3439
▁Lo	-3440
▁ed	-3441
cell	-3442
mund	-3443
omed	-3444
▁Gre	-3445
▁lam	-3446
ronic	-3447
woman	-3448
▁Made	-3449
▁deal	-3450
▁drop	-3451
▁hunt	-3452
▁kins	-3453
▁blows	-3454
▁enjoy	-3455
▁greet	-3456
▁large	-3457
▁obedi	-3458
▁expect	-3459
▁humble	-3460
▁necess	-3461
▁Wherein	-3462
▁courage	-3463
▁honours	-3464
▁advantage	-3465
▁wherefore	-3466
IE	-3467
ALB	-3468
fer	-3469
▁Tr	-3470
cend	-3471
▁Ver	-3472
▁dry	-3473
▁foe	-3474
▁pol	-3475
ICKLY	-3476
▁dism	-3477
▁lest	-3478
▁rare	-3479
▁claim	-3480
▁quite	-3481
▁wrath	-3482
▁author	-3483
▁endure	-3484
▁former	-3485
▁sirrah	-3486
▁winter	-3487
▁QUICKLY	-3488
▁manners	-3489
▁thunder	-3490
▁trouble	-3491
▁Hastings	-3492
▁yourselves	-3493
Re	-3494
CHIL	-3495
With	-3496
tern	-3497
▁BOL	-3498
▁Vol	-3499
▁deg	-3500
▁mem	-3501
▁unb	-3502
▁unp	-3503
STONE	-3504
▁JAQU	-3505
▁amaz	-3506
▁bene	-3507
▁bott	-3508
▁imag	-3509
chance	-3510
▁ACHIL	-3511
▁TOUCH	-3512
▁bount	-3513
▁contr	-3514
▁heels	-3515
▁kneel	-3516
▁BOLING	-3517
▁Edmund	-3518
▁damned	-3519
▁safety	-3520
▁wrongs	-3521
▁emperor	-3522
▁ACHILLES	-3523
▁ROSALINE	-3524
▁Rosalind	-3525
▁Christian	-3526
▁TOUCHSTONE	-3527
▁melancholy	-3528
▁BOLINGBROKE	-3529
ait	-3530
bes	-3531
cil	-3532
con	-3533
dle	-3534
jax	-3535
ued	-3536
▁COM	-3537
▁Pol	-3538
▁Two	-3539
▁gir	-3540
▁hor	-3541
istol	-3542
▁Rich	-3543
▁meat	-3544
▁sens	-3545
▁Friar	-3546
▁skill	-3547
▁thief	-3548
▁wench	-3549
▁Arcite	-3550
▁swords	-3551
▁tyrant	-3552
▁Leonato	-3553
▁Prithee	-3554
▁BASSANIO	-3555
▁heavenly	-3556
▁shepherd	-3557
GAN	-3558
IEL	-3559
▁DO	-3560
▁Ly	-3561
▁od	-3562
INGS	-3563
acle	-3564
angu	-3565
ouds	-3566
ract	-3567
▁VII	-3568
▁aid	-3569
▁nay	-3570
arent	-3571
aring	-3572
ianca	-3573
ident	-3574
▁HAST	-3575
▁damn	-3576
▁fond	-3577
▁gate	-3578
▁weap	-3579
▁Hence	-3580
▁REGAN	-3581
▁anger	-3582
▁keeps	-3583
▁lover	-3584
▁spent	-3585
▁stuff	-3586
▁intend	-3587
▁Besides	-3588
▁CAMILLO	-3589
▁bearing	-3590
▁HASTINGS	-3591
▁occasion	-3592
▁proclaim	-3593
▁sometime	-3594
▁Northumberland	-3595
gle	-3596
mit	-3597
rat	-3598
ATCH	-3599
folk	-3600
▁Rem	-3601
▁fie	-3602
ALBOT	-3603
Reads	-3604
orses	-3605
oteus	-3606
▁Ajax	-3607
▁CORN	-3608
▁Fore	-3609
▁Mars	-3610
▁cost	-3611
▁heed	-3612
▁idle	-3613
▁join	-3614
etrius	-3615
ointed	-3616
▁Percy	-3617
▁WATCH	-3618
▁mayst	-3619
▁meant	-3620
▁oaths	-3621
▁revol	-3622
▁Bianca	-3623
▁TALBOT	-3624
▁compan	-3625
▁naught	-3626
▁solemn	-3627
▁throne	-3628
▁virgin	-3629
▁Norfolk	-3630
▁SERVING	-3631
▁desires	-3632
▁perfect	-3633
▁brothers	-3634
▁Demetrius	-3635
lo	-3636
IPP	-3637
lip	-3638
rim	-3639
atra	-3640
ical	-3641
▁fee	-3642
ustom	-3643
▁food	-3644
▁leis	-3645
▁mend	-3646
▁nose	-3647
▁rans	-3648
▁usur	-3649
▁vict	-3650
opatra	-3651
▁Capul	-3652
▁Somet	-3653
▁start	-3654
▁widow	-3655
▁Follow	-3656
▁Venice	-3657
▁desert	-3658
▁employ	-3659
▁simple	-3660
▁Proteus	-3661
▁madness	-3662
▁HORTENSIO	-3663
ta	-3664
ANC	-3665
END	-3666
IAM	-3667
INS	-3668
NIA	-3669
awd	-3670
kin	-3671
ppy	-3672
ient	-3673
mble	-3674
oral	-3675
rehe	-3676
▁Bid	-3677
▁Bra	-3678
▁Get	-3679
iance	-3680
ising	-3681
ourse	-3682
▁Kent	-3683
▁abro	-3684
▁conj	-3685
▁fury	-3686
▁sail	-3687
▁tail	-3688
▁guilt	-3689
▁spite	-3690
▁utter	-3691
▁FRIEND	-3692
▁Marcus	-3693
▁Sirrah	-3694
▁betray	-3695
▁broken	-3696
▁finger	-3697
▁lament	-3698
▁malice	-3699
▁school	-3700
▁thrice	-3701
▁whence	-3702
▁deceive	-3703
▁monster	-3704
▁profess	-3705
▁protest	-3706
▁argument	-3707
▁Cleopatra	-3708
IX	-3709
PTI	-3710
ump	-3711
▁Py	-3712
IANO	-3713
UELL	-3714
cing	-3715
wise	-3716
▁Hal	-3717
▁cat	-3718
▁fle	-3719
▁hid	-3720
▁top	-3721
▁uns	-3722
allow	-3723
▁FOOL	-3724
▁GRAT	-3725
▁JAIL	-3726
▁cure	-3727
▁doom	-3728
▁duke	-3729
▁knee	-3730
▁vows	-3731
▁wond	-3732
PTISTA	-3733
UELLEN	-3734
Within	-3735
orious	-3736
▁LANCE	-3737
▁flood	-3738
▁train	-3739
▁borrow	-3740
▁fought	-3741
▁Charles	-3742
▁follows	-3743
▁BAPTISTA	-3744
▁FLUELLEN	-3745
▁GRATIANO	-3746
▁courtesy	-3747
▁particul	-3748
▁SERVINGMAN	-3749
ONT	-3750
elt	-3751
▁Di	-3752
cian	-3753
vish	-3754
yond	-3755
▁AUT	-3756
▁Boy	-3757
▁Dou	-3758
▁bas	-3759
▁few	-3760
▁gaz	-3761
ified	-3762
▁Long	-3763
▁MONT	-3764
▁Prin	-3765
▁dust	-3766
▁ones	-3767
▁port	-3768
▁slow	-3769
▁tune	-3770
OLYCUS	-3771
▁Bened	-3772
▁breed	-3773
▁cried	-3774
▁fiend	-3775
▁murde	-3776
▁reign	-3777
▁twice	-3778
▁Emilia	-3779
▁JAILER	-3780
▁Pardon	-3781
▁Silvia	-3782
▁griefs	-3783
▁lovers	-3784
▁repent	-3785
▁undert	-3786
▁unless	-3787
▁colours	-3788
▁leisure	-3789
▁weeping	-3790
▁wherein	-3791
▁AUTOLYCUS	-3792
▁Wherefore	-3793
UST	-3794
apt	-3795
dem	-3796
ENES	-3797
▁Put	-3798
▁ant	-3799
▁yea	-3800
▁Dian	-3801
▁seat	-3802
ISBURY	-3803
▁POINS	-3804
▁chall	-3805
▁fruit	-3806
▁sighs	-3807
▁MARCUS	-3808
▁clouds	-3809
▁thinks	-3810
▁affairs	-3811
▁corrupt	-3812
▁whether	-3813
▁Benedick	-3814
▁COMINIUS	-3815
▁Tomorrow	-3816
▁approach	-3817
▁dreadful	-3818
▁minister	-3819
▁subjects	-3820
▁SALISBURY	-3821
▁monstrous	-3822
▁Ep	-3823
▁OS	-3824
VOST	-3825
cked	-3826
enet	-3827
eous	-3828
gypt	-3829
inds	-3830
uten	-3831
▁HOL	-3832
▁Mil	-3833
▁Sic	-3834
▁VOL	-3835
▁led	-3836
▁pin	-3837
▁wag	-3838
GHTER	-3839
iving	-3840
▁Time	-3841
▁dign	-3842
▁easy	-3843
▁fain	-3844
▁pict	-3845
▁stol	-3846
▁unha	-3847
ounter	-3848
▁Cress	-3849
▁Egypt	-3850
▁STEPH	-3851
▁Still	-3852
▁cries	-3853
▁doing	-3854
▁fancy	-3855
▁knife	-3856
▁loath	-3857
▁stone	-3858
▁abroad	-3859
▁looked	-3860
▁weight	-3861
▁Britain	-3862
▁PROVOST	-3863
▁DAUGHTER	-3864
▁treasure	-3865
▁desperate	-3866
▁execution	-3867
CUT	-3868
ITH	-3869
llo	-3870
que	-3871
son	-3872
tle	-3873
uch	-3874
▁GA	-3875
BERT	-3876
Twas	-3877
▁len	-3878
ERIUS	-3879
IDIUS	-3880
ances	-3881
heart	-3882
iling	-3883
wards	-3884
▁Only	-3885
▁Post	-3886
▁Save	-3887
▁WILL	-3888
▁bell	-3889
enance	-3890
▁awake	-3891
▁chain	-3892
▁langu	-3893
▁seven	-3894
▁Desdem	-3895
▁begins	-3896
▁circum	-3897
▁horses	-3898
▁	-3899
e	-3900
t	-3901
o	-3902
a	-3903
h	-3904
s	-3905
n	-3906
r	-3907
i	-3908
l	-3909
d	-3910
u	-3911
m	-3912
,	-3913
y	-3914
.	-3915
w	-3916
f	-3917
c	-3918
g	-3919
I	-3920
p	-3921
b	-3922
A	-3923
T	-3924
v	-3925
E	-3926
k	-3927
S	-3928
’	-3929
O	-3930
N	-3931
R	-3932
L	-3933
C	-3934
H	-3935
W	-3936
M	-3937
B	-3938
;	-3939
D	-3940
U	-3941
?	-3942
F	-3943
P	-3944
G	-3945
_	-3946
!	-3947
Y	-3948
K	-3949
x	-3950
[	-3951
]	-3952
-	-3953
:	-3954
V	-3955
j	-3956
q	-3957
—	-3958
J	-3959
z	-3960
“	-3961
Q	-3962
”	-3963
Z	-3964
‘	-3965
X	-3966
1	-3967
(	-3968
)	-3969
2	-3970
4	-3971
6	-3972
8	-3973
0	-3974
3	-3975
5	-3976
9	-3977
7	-3978
æ	-3979
&	-3980
é	-3981
è	-3982
ç	-3983
Ç	-3984
œ	-3985
à	-3986
*	-3987
É	-3988
Æ	-3989
ê	-3990
À	-3991
ë	-3992
â	-3993
î	-3994
'	-3995
